module attributes {torch.debug_module_name = "TestModule"} {
  func @forward(%arg0: !torch.vtensor<[?,?,?,?],f32>) -> (!torch.vtensor<[?,?,6],f32>, !torch.list<!torch.tensor>) {
    %0 = torch.vtensor.literal(dense<20> : tensor<6x2xsi64>) : !torch.vtensor<[6,2],si64>
    %1 = torch.vtensor.literal(dense<[-0.0239861608, -0.0732160956, -0.0811268091, 0.0899540633, 0.0215149969, 0.0500222296, -0.116441786, -0.00847105681, 0.0817667097, 0.078023985, -0.0355836898, -0.0651752054, 0.011888355, -0.0817589759, -0.0461307019, -0.00603836775, -0.103232414, -0.028525576, -0.0990270376, 0.0718144774, -0.0720389932, -0.113234043, 8.13484191E-4, -0.0487631261, -0.0360235125, -0.047995314, -0.087739557, 0.0495162308, -0.0606820434, -0.0988170355, -0.0310817808, 0.10653834, 0.0883345753, -0.0264824331, -0.0777300298, 0.0991502255]> : tensor<36xf32>) : !torch.vtensor<[36],f32>
    %2 = torch.vtensor.literal(dense<"0xD018BF3CA4A5E73DF0AB11BD78D5C3BD2A61C2BD0841CB3C8C7EB3BD00EBBDBD4070C73DDAF0883D088EE53C600F63BD0091503D182FE23D008FC03CA8C1923D2802ACBDD807843DBAB1DFBD0C6965BDF8F4E83C4843903CC239F73DC81E463D201D4BBD302CCCBD94B7F0BD9066A83DF88D6B3DD82CA43C8004A0BAA890643D20BBEE3BF0D2AFBC8847E23CB41FB53D82B2853DBAEED8BDA0B28FBBC84F3CBD1E46DEBD784CAABD88E0DFBD400749BD7899A5BC586400BD7064B0BC825FAABDD038BC3D369BC43D20AA23BCF2B0AB3D40C0963D5246AEBDAA38EA3D6EE491BDC0E02F3DB865D13C48FC8F3CB814783DBC377ABD58AC883C60A2A83B20CDF7BC6821D03D527BB63D04847ABDF2A1933DE0F6D83DCEFACBBDB86EE1BD70A3E53DE01004BCFE03D13DBC5D8E3D3C180CBD180F7F3DC04B953D082A773D40BDDFBD1ADDC0BDE20386BD2219893D4071603CD850033D3A07FC3DC47DAABD04BFF43DA097F2BC006F89BA9299B73D20CB083DC05D543DA4D8183DB4108EBDC8274D3D24211F3D58E5573D4C6FA7BDEAC7C03D5091A63C1A81C23D94587D3D005CBFBD5E9CBEBDE034EC3B8EC9AABDB203E1BD5C2BA0BDD2ECE2BD40CFEC3B88C265BD60B8C63C72898ABD986C983C80C4F6BD8C709A3D124099BDE80BE63D649506BD9451613D1C7B483D5ACBAABD603EE8BDC09F3BBBD029333D2E8F8A3DE04B393CF0EF9CBCBADBE1BDD8DF073DC60DA53D6086273DA8DB61BD009BBDBC0473DE3D666A983DCA4F9CBDD4649C3D707E493DA8488E3C980A903DE4BCEB3D88F91DBD7A57EF3DEE13B43D7885B63D1032D1BCF845D6BD50B006BCC00BD63CD85C323DEA5890BD1ABB873D90352EBC9A5FAA3D6CFF343DB07A24BCC8D6D03CE23DEDBD12D1843D1C7DE3BD302F023C3CEC05BD10EB39BDE0F3C23CF4B959BD8071A13D101390BC80685ABD84942F3DA07C163D685CC3BC2449873D385ABD3C4690A0BDB4A0E43D5009D13D361B873DC08213BBCAD7EFBD36ACCDBD4050053C7E34B1BD0E02C63D502754BD60F3D93B6C3E35BD0055F1BC1476373D182CC13CB8E2B9BD005489BAC4CE60BD9839F83C7EE7C3BDAA28CEBD3087A33DE468AE3D82D4EFBD369CCD3DE6E38D3D6AD7B13D74118D3D305EC2BDBA46A03D4AA0843DE6A1D73D98A9CB3C3817B13D9688C23D600261BD0018ACBB2851133D74FA58BDE08B2EBD524680BDE867F43CA4D18E3DB80FF2BC908EBBBC06959B3DBC2006BD00CAB63DA6AB8A3D90E6E13DF204A5BD96E1F7BD3EE2FE3D70C6EA3CA0C6D83BD033D53DD89DAABDF26CEABD861CAB3D00AB85BC70F5303C6027A1BDBC91F5BD800167BC007320BB7A47B0BDE47166BD34E2FBBD50C1DA3D64C6A13D64BBB4BDA028EDBCF05B66BD9E07D43D80928EBC803F8E3CA87C5B3D902C86BCBCFDC23DCC3A6D3D3C16C23D967C923DD08FED3CC003F9BD30664A3D627CAABD0082FD3C8A5B8E3D007B923B08E295BD5C06483DF8C15CBD30398F3CB004CE3DA0A990BCCC00EE3DC074033CC061E6BD4A109E3DB071A8BC1451BBBD7CEAB0BD50C2B33C9264C53D68469D3D7C17933D0019D0BC425CA73DC86B533DF06BF0BC3EA9A7BD940D00BD2C03463D140A3F3D9C3EBFBDE4612BBD92569EBD047489BD6852DB3C94F7BABDFC9B27BD9CFEB1BDD0CFC03C22F7EDBD28D0CCBC9C82E13DFA84F53DDEF8CFBDD0A032BCEC67F9BD023BE33D98D3923DE8F8153D188F0C3D4013E73C146365BD6261F1BD40F119BDD00605BC909D67BC5CDFA33DB0FBF03D30E6D83C60429A3C8A3CCD3DBE41A1BDB0C7293DA0EE9FBD40ACE4BC744F773D7057C3BDE032AA3C64A150BDF2C0EFBDAA8DF1BD78A2B2BD40E71EBB728BC3BDA8D6B9BCDCEDE0BD18C971BDF877C7BDA47A71BD5893143D80F7BE3AC625C23D6074E83B8859DF3C4445F2BD68A0C5BDB0C6343CA00911BD9C6A99BD362B823D20EAEF3D387823BDEC33C9BD465CC63DF241F5BDE421E23D184757BD44164A3D0814D53D50E27C3CF2C3CFBDA0D9BFBD705100BCC488EDBD62E5BD3DE21FCDBDB8C26B3D54F19E3D2057A63D028F823D703B03BD4894C53D7091023D9C06AA3D786AF9BCC417D8BDDC8753BDE007F3BC2C5DA93DB0C5973CC6B5A13D50522CBD4A9CA3BD7254E73D0482E63DA48B403D84C3473D74AB5D3DE0C7EEBCF23DAEBDFC1AD8BDCCFA253D7CCA70BD9033F43DE03EDF3D4CFB00BD9078383C526F8FBDF866EE3CFC8E1E3D289866BD8495D0BD9E85A33DFA3EB6BDA2E2E53D00D2EABB9097EB3CC4E75FBDD057913C8844D4BD8CCB03BDD062053D1094593CE2C0963DBC54DEBDC02426BD6442D6BDB4ABD2BD10AFDB3DAA1CADBD34CAC43D3C786E3D6E9F8CBD48B6C63C0C3464BDD060793D08F00DBDFCF94C3DE080863D80C3793C5C56203DACB1FB3DE08487BBE8BEB13C08490F3D80291F3DB8F1153DF8D9243D503D64BD54084B3DC02BF0BC7C50703D6C5EB7BD0C83CE3DD85D64BD6A0CA83DE80BEC3D284C70BDE4390DBDB85AF5BC2026943C6431DCBD38EC1F3DB6FA83BD1AD9883D2C7C51BD4C5D07BD6090F9BBD8481FBDEC85FDBD24802CBDFED6E0BD7833DBBC004552BC6A4083BDB0D745BDEECDC73DFA849DBD60FFF8BB90EE063D20C96E3C7ECF833D802ADABA4AD8E8BDB4031CBD909376BD2C98E43D2A3BC63DB03E0C3DD02DE5BD18A2143D0C6D2A3DF036A8BC285E10BD2887553D54F03C3D00E6943A7AC987BD0CA8123D6E0FC23D80F669BBCA05B43D307819BDBCAA21BD20A385BC3630CD3DAEA5D83D54E3F8BD10E342BC86A997BD4ECDDF3DE6D0F73D405256BD842BFEBD0864F33CA8B82C3DF4D5D23DD02C06BCDC548CBDB8856ABD78C8173D60381FBDC624C73D10E96BBC14AAE9BDC864EFBC9C0B6FBD68EFEEBC00D258BD0E03863D1A38E23D587413BD647BD5BDE06FB03CA8CEB43C907AD0BDD011DA3DD084C1BD8836783D889CAF3D0C7C25BD70D1273C9E0EA0BD02BDE13D5CF020BDC0F7A73C903ACB3C0A96C93DB8892C3D140BEA3D003A583B4ED9A3BD0CF25E3D3A17B83D50076CBC0ACEBA3D28CB59BDA4B8DFBD0863053D9E10B8BD801C353D7ECDD13D68D1BD3D04CC6E3D406B2C3BC833813CDED6EDBD1C60A63D3CB9663D4AE08D3D2609A4BD04278FBDB0695B3CE093D4BD328ED43D6068D0BC1C329B3DCA14A33DAAFAD23DE8D28D3C80B33A3DCE7B92BD6C8A0ABD2847A4BC5CEE6CBDB6C2F73D5C01613D40620E3D0080533730E0A33D6000593D00021D3AA2819ABD920EA9BD1006FB3C829383BD68A19D3D30AAE9BC7A15D7BD04D5EC3D9026DE3CF0F75CBCCA61C23D600E773C3297C73DF097A1BD10737EBCE4116B3DB8DF893CD83F8EBD2C1E2A3D98354C3D5A8C8C3DE423DFBD7EC2EB3DF09F71BCF49AB8BD287EB9BDD0B6403D7887C7BCB4D640BD6A23C33DFA56B33D4C35E73D0C0F3ABD0013ABBDBE25D4BD780E8FBD465DD63D602862BD0859F7BCA0E727BD805F28BB4268EEBD00486B3D40F7CDBB8E17CE3DF8A1D1BC20FABBBD7816883C3A3CD8BDA0202E3C341B5E3DF445FFBD38BFA03DE0D78D3DB695993D0C2637BD74A6B6BD0A02EB3DB8CFB5BD4E4F973D70F006BD90EDDEBC00A3BBBA64E154BDAEB5C6BDDCE4D6BDC86DF1BC44C34ABDC08F5ABCBA07C4BDB0A60D3D44BC58BD48E7A93D808AA13A6C2596BD1823EDBD86DEA3BD2004CDBD3CF7E23D00AF913B60A5DEBC40671C3B5CD2EE3D3AF2AE3D78F3DFBCC8C06E3D3A02DDBDC6B7E5BDC015ADBBC8C4B4BCC0E571BC04D1133D346784BDC4BADE3D16C7A43DA056EFBC308BF73C907E603C2E99AE3DFEA4A0BDC020DB3B9207D63D00D41CBC20AD33BDF481C5BDBEAA983DA883F5BDC00C7D3D306F883DE6EDD4BD3EA8B2BD0035483AA03995BB3C23C5BD94F825BD243C703DEC746D3D20763A3CE0CBA93C9028EABDC4ADE23DD4309A3D206EE9BC8058ED3D6EE3FEBD88983F3D1ADAA4BD9CADE13D2006C3BD700E533CBEEDF1BD461588BD705D74BCE4F2B63DD0B0023C1C273EBDEC6473BD48D7C4BDF838E7BC7C038A3DA2C2A4BDEC1BA13DFE22D73DDC9D10BD0EF497BDC0ADCC3D6CF48D3D5A3FBDBDA416463D66E1C4BDB867C6BDC094D6BB40B0B4BD189C7E3DE627EF3DFC67C6BD8C9DC03D7604DFBD36E1A2BD585BE13DD08835BC6E2FD03D681864BD14FCA13D009E3E3A90A1A93CB841ADBC1A00E9BDC832D63DD236A6BDAC7C7E3D000854BC50299DBD4C8E653DE8A6C73C14C2E2BDA66A9C3DC0F19DBCD491223DD2288DBDF02819BC3E8E9B3D409341BD7A0EFABD44652CBD60948E3DD0979D3D2AA7FFBD00DBF43B825FB23D7007C03C2E24AC3DE8B0863DA4C006BDBCFBCE3DDC7FC73DE87F2F3D80B1443C34217B3DA099C43CE0B9EBBD18B926BD187E60BDBCC66FBDF23BB5BDEC7B1D3D8E8B94BDB828E93CB61EEA3D088B17BD0620FABDB09D80BC82358DBDE008353D28A3DBBD4A82BABD18A9983D202EC53D2CDFF23D3019AA3DB0890D3C5A6FCFBD74219E3D50D1D5BDE4889F3DFC48F1BD0A408E3DDEC280BDF074DCBD5ED5F7BD3A34DCBDF03D433CD411BB3DACF277BD18C891BD0815993D4CDD503D183A67BDD81D7BBD745D893D40A8513D887F24BD80C7CD3C5CEE4B3D642E793D501734BC905EDABCDC66DFBD8C2249BD24020E3D94794CBD40E2623DB09F6F3CC42268BD84D4953DA831B8BCB8A2B63D24107FBD5E6CC53DC06156BC2878E43C981E993CB0B3F9BC0222D1BD6260D03DC8A76FBD1ECBCDBDDC595DBD40A87B3C0EE4853DA0DDE03BC86BF6BD005E6CBDD05122BCECABAABDD6ECB7BD0E01D93DCCB502BD3EB3A33DD24A8ABDF8BBA5BCF09D063C64B2A7BD40953DBDA879003D6671FBBDA026ABBCC20D80BD841656BD32A4B13D2EFDCEBDD49A79BD54F713BDE084E2BCE0BDB0BBE2EBD73DF64BC13D46A9E5BDFA5FE9BDD054B83C0859843C8C7BC43DC8E6853CA039EE3BF0D422BC5EA2CEBDE29F8BBDB080A5BC8888813C1A7AB43DB0056F3CE853CFBDD89398BD809CCA3A6A979D3DE2D5B43D8276EF3D18EF043D38DB1CBD4200BFBDAA56ABBDFCE139BDA88DFF3C8295A0BD3019BABC004ABFB9BE76C23DA0530EBC1094A03D7203BB3DB0E4FFBC8C67D63DF006773C0469DD3DB4F2F6BDC0DFC5BBC02F78BB28B7C1BDB0EE08BCE2029BBD46EC8EBD2010CFBD8680EFBD4C356E3D7840AABCEAD3933D92F5B63D20BCD43B3620ED3D2492B33DA249DC3DAE21C0BD6C857BBDE06908BC38AD7C3DFCAE64BDE47A0FBDEA4283BD147C4C3D78E7BEBD481B353D1466DC3DE83CBF3C545F35BDB679B1BD1C6F7DBD1E72CF3DEE29A73D807BF63AD815A6BC78261ABD10293FBD984BD33D801674BDE0C6E33CC8E99F3C1410663D46B2E13D5017D43C1C8C43BDD084C4BD806A6FBBA012243CC663E73D3024AB3C3C7A74BD006F633BB8F189BD68D8E63CACEDA4BD8C8516BD3CB4FB3D1878C1BCCCA9993DD8B8E43CC6DFB5BDF013B93CA0B0853CB2AAD6BD84912C3DD08F7E3C1828C9BD2040E53B704103BDD421F03D1E9FD9BD5CA580BDB4B8E2BD3897E13C5866D1BD1834B83D28BA1C3D1805A73C68C9A33CDCB60D3DA8E3603DCC5C133DF0283DBC3869833DF09B16BC8030BEBA18591EBD268ECB3D684F353DE8961BBDC8AF833C8CB1B73D90F2AC3D98A98C3CACA370BD00AD92BBAC7D903DC614EB3D3C3E8FBD40B4EEBD3EAEE53D96A2B7BD1419543DDC6A9F3DE686BC3DA091F3BDECCE01BDAE21853D88922BBD047C4A3DE85C533DA034FE3CDA3EF63D024F96BD5051DBBC7E52F8BD807CDFBDF0E273BCF09A38BCE0DEF13BD205FA3DB89AA23C08FA26BDB89614BD24ED43BDA0B1C8BCBADEECBDE059903BD6BFB73DD078E93DF02EED3D7A26903DBA02ABBDA01010BC00A0FF3D946CF9BD760DD13D3825CFBD5894373D26FBCA3DC0AB973D047540BD64BFCE3D904AB6BCECC99ABDFC80B1BD92D5883D38CBEB3C944E643D4AD7A23D1A8AFBBD207D753C1CC41FBD6CD6DC3DDCD2EA3D188D583D80BD913AB864993C7CF3C8BD508C243CB0C757BC3EA89CBD081EA83DB0BFEA3D600359BCCCC0BEBD74935CBDF09163BC920B8D3D36D3F53DF85BE03D4657C93D44E8B83DC8E9BC3D2E3AFC3D70CEE2BDD8F87ABDECF4F8BDBC21953D4463593DA492EA3D04781DBDE0BF383D2402533D1E22C3BD0E5FB9BD4C37B83D78710D3D8E7CC73D184F033D9897CABD22E480BD0AFFB23DCAB3EA3D08E52A3DB0BA6C3D028EC03DD0889E3C02DDC23DD403C73D88D0CABCA82525BD2C1B883DA4929D3DD468933D3834D0BD28E99D3C3C30E2BDE297EEBDF06D2EBD002E5CBBD88936BD085D1BBD606EE43C88B68E3C80350CBC8443CE3D444599BDA6C3C93D0825113DFCE08A3DF8BAF13C0013BCBBDC02603D78FECF3DA02D40BD9603EB3DA840B63DD812C9BDAAF5DB3D14D180BD944BA6BD205FAFBD16BB913D0C7BFC3D2CC59C3D52BDB33D4CC6663DA4729EBD9055F83D000052B62C57043DE80C833CC86DA53DC061043C90BB6ABD2019CBBC6062B0BD88587BBD4A1FAFBD2AB2BD3D5ABACFBDA2A191BDBEEB98BDF8E4FABD80C9E0BB288EA23C88611E3DC06F28BB40BD22BB5E03B83D4884273D40CF683B58381FBDF6B4AEBD4408323D40E7CCBCFE89D8BDDA359D3D706C6BBDE00C493D92F8A93D3CBEF83DAED3BEBDDCE290BDA8CDCEBD4065FE3CE428863D14140DBDAC66043D50043C3D467F863D5CCE1F3DF0A3013C60485ABD3442D1BDE87F913D20E95C3D90AA38BC00D4FF3C140E9B3DC62E8FBD9EBFD7BDF64B8B3D28002EBD309064BDA82DEEBDB027863C64ED37BDAE35CB3D44081EBD808E39BB4034373DB4C34A3D0C58403D286346BD00B8FEBAF67097BD009E08BC6093B33CA0C595BBCC11EC3D1839073D58CC3DBD2CCCD3BD000E9C3A862A993D4C3118BDD0DBB8BC18DEA83DFA6AB6BD22F786BD58D40ABD64D0CCBDD254D7BD1281C0BD767A9D3D2C5E7DBD546B613D1883B33C904619BDB6E7993D882E4A3D001E5FBB00BC93BCD08526BC685069BD0CDA0FBD40479CBCCC6CE4BD32BFB63D7085C4BDC085AF3DD03D523D38C5583D54E8CABDFE31BCBD0ECC9FBDA08E0EBC68AF9DBD82FEF63D88DCFABC7CBDFCBD6E32E93D28E6A6BC9CD449BD02D8C33D1659A93D00CD793A74692E3D04EA353D2A97C0BD0AAF803DD8EA8DBD92B0843DF280F83DD02CD03D44B57F3DFA53F23D9ED096BDE0B9D9BC800253BD30A28EBDE07ED03B583B73BDC038A4BBD82B35BDE26CECBD04B74C3DE4073E3D300129BCC0236F3CF821203DE84C91BD006DA1BC3038E53C508BC7BDF0CF533CD02FCCBD72B8C03DE2889D3D34D29A3D60E2C23BF826E0BDC00803BBA0EE9FBCF87DEB3CBC959E3D506E7DBC0696EDBDBE89D53D0CD1A83D3C8432BD408F70BDC0A211BC727BA1BD8C82FE3D44282F3DA4186BBDD00AF63DE086963BC03D69BD7C692D3DF01F623C0008453C3A2C943D9851F8BCCEA2F53D7488503D4498DEBDE017943DA661CC3D5CBB8CBD3A88923D88E6A93CC4F8E7BDBCCD10BD0C49F53D12A6C23DAAB5D33D6879FF3C4A6D99BDB893A93C3042E23D780F8B3CEA6DAC3D78B35F3D5054763D2407B8BD28D0E5BCA08687BDA45DD33D0E56E43D8A89E03D38CEB3BDB4C47ABD0C60D03DD0DC6F3C78919E3D4086203BFE12EC3D483FF13D9007A9BC567BFB3DBE7BE4BDB0747C3D6873E13D9CC3D6BDC8ABFCBC7005473C80BCD53D24FAFBBDF86ADFBC7E3DD33DA8B6CD3D2E5AE13DF864D6BC8C2C953D6C5D6D3D38D23FBD24C6CEBD6C3D4CBD60C30D3D6C3BCEBDDA8BC2BDF8ED9B3CA8A5CF3DD8C1AA3D687A0FBD14E69CBD0C0A5ABDF282E4BDA8E792BCF63F8EBD386566BDBCC4EA3D40B311BB046BD33DCEA2B53D386867BD3E42BCBDFA02D5BDC00AA2BBB893A73D9427F8BDACCB583D508A33BC2C573D3D20DA54BC887208BD92C48BBD988CAA3C5842E7BDAC2CCA3D5C8F36BDB0F57D3C00961BBB887D0CBD2C26533D4678F9BD94F79B3D82A6A93D2826EABC2E63C6BD5C9210BD50B8DB3CF076B3BDF8DFDDBC74B6D33D8CAA03BD22CEE8BDE89DAC3DA8459ABC1EF5D8BD3CE8CBBDC021C9BDFE24E9BD4082E03D3EB284BDC850C9BCE84DC9BD025795BDCC954EBDFC6BCDBD82B3923D80FDC13C60EDB0BC64595D3DD8E0AFBC64620A3D40DB853BBCC4F33D089E41BD4C002CBDE09C87BBF671E7BDCC48A03D68DF4F3DECDB223DAC75C83DC0EC78BCE627AC3DCA97C7BDEA2FD3BD589C053DA09FBEBC86DDF5BD703F29BD18419C3CA40D163D1A5D913D3C93CBBDD8E8DE3D402C2ABBEC727C3D2CFB493DA0B9AA3B240A36BD2A8CF33DB0286D3D90A9383CC8A1223D4466153D727AB8BD609406BCE8D7B93D346E3D3D28D4A1BCAE21FBBD68B7DE3DCE6CD73D001800BB8475473D824DE83D0845923D20FDD93D04F1B7BD5489113D587499BCAA77FC3D402176BBB244F5BD82B3C03D9EC6F2BD48A7A5BDDE65A53DE0EE1DBC20ADB2BB6447B4BDB0FB963DB043A73CD8D0923CBCE1CD3D00FF82BAF08A0BBDC0CF2B3D701EF83C4236DFBD1C860F3D82B1F0BDAA6EE6BDEC26FD3D7EDEB5BD86B9B1BDA896453D50D219BD18EEA5BD9C1224BD9C13EDBDA22DE93D8044A1BA9834893CE6D8FEBDD089363C3E7AE7BD960A8FBDF45A753DF4B2A7BD16EE83BD5C9C9FBD8A66DEBD4878A3BD9AF1A03DC86CF53D2C49C2BDA290FCBDE683FD3D807B40BB8CE1953D24B629BD40221A3C8432F53DC05BFC3B9074BCBC5CB462BD48A21E3D284A9D3D500689BC5C820D3D101AB8BCE050C93C389F8BBCACE5F2BDF4B571BDB0ED933DD857AE3DAAE2C33DA04C3DBDF0520A3C14982A3D54EC3DBDC82CC8BD10F0AC3D56B5B23DF8DBADBDA0BA4D3CF86EBEBD082938BDD0425C3C005519BD94EBA5BD6C51F5BDDC32A83D50FDB6BC401CEFBC447DDABD6211E2BDD430C13DE092683DA0D8C13BF2FBFA3D40DA43BB800B43BC9C915CBDA0D0E53C387FA8BD2009CFBC0CFBCA3D3AECEABDBCEBE0BD983CC03CFCE13C3D7AB9A7BD202843BCF01DEEBC40FE733C34F8313D14F24A3D00C694BAB66CDEBD149D2E3DC29FC63D4A4180BD2699EEBD80D149BC202397BC3891CF3D689DAA3D08F47D3D3C14C13D9029BE3C4083333DE003DB3D80E23D3D00006D398824523D4065DEBC629BD9BD705C41BCD04A013C341AA73D34FB523D8851FFBCC8F477BDDCF39FBD80E5D13CAC7BDABDE84531BDBC189BBDC673A03D42CBA53DC458CABDE0BCF8BB908F85BCE8F3B8BCF87FA1BD188ED4BCC22DBDBDD8D2E8BCE2CFCC3DB614DFBDB04754BCF06184BD786FBC3C30305DBCD8C6F93C98D15ABD589E1C3D1C4D5FBD3031BEBCE8608EBDBCC8EA3D32D6A83D04370DBD9090D53D9CB8F5BD9863573D1275ECBD848210BD00787A39D089AABC18E5FA3C6614C1BD72E3BB3D787483BD5C74EC3D265182BD0A7DA73DAA058FBD8088CA3A108EB4BD787ABABCB4A7A53D90E7753D205081BCBCE308BD340D573D80D0F5BCD89275BDE8DEBB3C4E3CC7BD06FBBBBD7807833DC83C3E3D6086A1BCD461AF3DB8E59EBC74BE1A3D306DE73D682EDE3D6C76C13D688CE43D400AA83DE65CFE3DB4FC30BD362195BDE2AA90BD1035E6BC0C5E903D02B7E83D340ECB3D4C8B313D4EFD95BD50E6FDBDE86248BD20CA343C484DB8BDB470F8BD7E0CC43D70B862BC50DA77BCA870EF3D984DECBCE632A13DF8CBBCBD00ECF8BA003C753D6030B2BDBEF781BDBCA988BD7A909BBD6248983DC4BC3CBDDCF4CFBD385D723D9834F73CECF40F3D705050BDA2B5B3BDFCA89ABD705838BCF47A1EBD4C0B0D3D38628DBC066EF73D50D07C3D2E0CA3BDCC80ED3D0EBEA03D64B0423D4EC9D53D10BD333CBEF7833D92BEC9BD0A05EFBDA4892DBD30E84C3CBE85E8BD4A2FBD3D8694A1BDEA1FD2BD6061903DA235AFBD2CF34D3D689D1D3D60A6A2BC6471CB3D786E8EBC58CDC3BC986DD73D08D27B3DF02511BC84C1E5BD020AAE3D8881A0BCF26382BD28BCCABD74B05C3D1827B23D8043B13B9ED0F43D80DD4F3B4895CBBD807710BDB00F40BDB8F323BD1CBBE03DD8BD653D1A6C95BD80DB5BBDD8659B3D3AFDCBBDF0C5E7BC7ACEECBDE05FBD3C8070A1BC8078E63A2057BA3BBE6287BD8CBA953D64D46EBD720DC9BDDE13EDBD2291F23DD867CA3C00DC88BBEC40CC3DD844B83D946BA63D80EE23BDA6E7F13D9E6FCE3D444B283D202AE3BDC40C813D4036FDBD786D86BCA039D33C50C2553D68FF65BD54CC483D4ADF9D3DDC0285BD004BD33B50D1553C149B90BD9409023DA06929BDB436353D800B98BAA08741BD70D4EABDDCA0653DB8BE8D3C1895C13C0A8ED33D787DCEBCF07E553D2CC2EE3D80BDEDBA907A283CF214D43D98BE473D6AEAF93D005558BCC6FA8DBD44368BBD78D7FDBCBCEC32BD606F363D46C1AB3D00B5F53CB812B9BC7090603CF023B93C749F69BDB01E643D6CBE90BDC6F7D1BD18FFC1BD189512BDACEC093D5CB03F3D3C27A83D1CE5013DB070233CC019983CC0D5083D2CF48E3D7081023C0018433B5A63A6BD40E8F93B1A4AF73D12D8823D9CB7D3BD0011013B4C76E6BDE45810BD705B953CD4C2CEBD10C0CE3C8876903CC822DCBCF869C43D008E743CAE5D943D90850A3CB869E8BDC8FB3D3D1A99983D707BD7BD782BEE3C78021A3D18174A3D4092993BB86DA9BC6863913C24DA683DA812143D40250EBC2832CABDF06449BCB8FDF3BDB8A3D0BD169BEE3D10F7003C40B220BDD888E63D38EAD6BD48D7943C54FD8EBD605441BC480692BD6E14CD3DE018073DCEC5BDBD30FBD3BC387F07BD9092503C0421AC3DA412013DD05C3F3DC634C93D40865EBC00F237BCE0D0393C404A3C3C56D982BDA0C29B3CC0322F3DB889B1BD04BDA93D883DA33D4002B13DE0EC2ABC72E5AB3D18543BBD10C181BD946344BD3635FEBDF4D8303DF2BBD3BD40E77B3D641EF6BD8826B93C2E87ECBDCEFAC23D50E650BD9025EBBC38BEA33C0ED09B3D9CCBF0BD1801003DAC76603D34BC523D48B28CBD1021A43DF607BA3DE8AFA03C3400D93D4E00BB3D624AD2BD74AF383DCCBE8ABD767CAEBD9808823D409214BC6C78653D3866B43C50EB45BDA087733D904A34BCF0007CBD3253F0BDA21AB53D3083A4BCE287D53DB008E3BCDA40EEBD7AAE9EBD809B8A3A6889593D7CDCE0BD301ECCBD9AFCA93DFC4B3ABDD2AEFB3DFC3FA03D3E12BB3DC4E746BD70CB61BDD831FABDCCAA5BBDC0A7A23C884FA73DDEDFD7BD80D3D93D300DC63D3080383CAA889ABDD0B0353C00035FBDD0814B3CA4F6CC3D8075AC3A12269EBD44F33FBDD4D192BD400A2BBD161ACABD8070B43D04D6DCBDC04ED4BDE84BF63C9AC1D0BDE87D5D3D6EC6C6BD44ABAEBD8076B8BAC899B5BC68E504BD8694CEBD80829D3AC44DC83D7085453CF8FDDDBDB41D143D381E4D3DD897E43D48F65B3D00E020BD4EDFA53DA0E974BCB825AC3D44B4563DB4A865BD543ECD3D3E7DEDBD188847BD54343E3D9CF56FBDBAC994BD0678A4BD36929E3D286DB2BCE8B99CBD6C10CE3D78DEDBBD989EB7BD5ECDDEBDE0929DBCE064BCBCA08CA7BD80B19F3BA2F1BEBD10F67FBD566ED83DDC7FBC3D4E69B23D84B4FD3D5C8D5EBD403A013B08EAA03C3097833D5881DD3C408D1DBC6814083DF80FA23D2489FC3DC45DC4BDD6A384BDB8F070BD203E4F3D1C17A2BDC096D43D3EB88CBD9241A2BD281458BD96F98D3D5073503C482C35BDC0C22DBDC893E2BDF052273C80DFF13A54161CBDE0F652BD80F6E6BC20A2D03C5A52BE3D2002553D2E17BE3DBC82403D10201A3CE214A43DD8C3D63C0022EEBA702FE6BD18D6833D2042D63CF693F43DE007C8BDD495463DE0C7F7BCA08D4A3DB20FEB3D2A0EFB3D4085D0BDA6ACA2BDC04706BD80364EBB20FD463D3612C1BDB83013BD7C2DBF3DFACA9F3D10147FBD1827D0BDCAB8FE3D30DE3ABCA08FEEBC74DFF8BD30CE20BD10E0DC3D884DB73DEC67163DE4512D3DF054CBBD40BC9D3BFE08FDBDEA8EF73D04922ABD4C44103DD854FC3D284AF6BC1041993C2009FDBC88468E3C563B88BD9829CA3D408283BB6487A53D30CA153D6221BABDA035893D5893D8BDF46A01BD54C4FE3D2E43B83D44BC44BD0018E8BC28148FBD3047303C00EAED3A4228E4BD2AC6DCBD40BABFBCCC9435BDD6A1E33DF4A72CBDB2A39CBD981C763DFC384A3D32A9EDBD34A364BD00C159BCB0C1B63C685FAF3DBCACD03DDAF7ACBD006F25BD909A77BDA6FCD3BD0C473B3D985C5DBD20E9A83DC06CDD3CBA22EB3D343883BDDC3E783D422FD6BD702E6F3DA676A6BD900CD63C5C66A7BD822D833DE04329BDD0FA093D42ABEA3D8E28B5BD86308B3DD491533DB4F6D7BD7E5CDABDA49E853D8CB26BBD00DADE3B285CE9BC2EFBDF3D368C94BD4028173B300DDDBD087FD53D2CF390BD8CB9CF3DE0867C3D9EACC3BD909139BC748C493D0080803BF2C6ECBD10B6313C16CFA63D44E1873DF6D3D93D1C202E3D5000A0BC3019A9BD1CD295BDBE4CFD3D5863C93C2C4E2EBD7A53D13D7882793DB6F1B53D00E97EBDAC4D1EBD2A3E8FBDBCC5FA3D6299DF3D48C1E9BD02B4DDBD2405463D40E3613D589FD7BD0CBCF4BD208C9D3CC02F903C3067863D3046A13D00B77CBCA8C87B3D506D063DA0D3F53CB009E13CE24CC63D24AB533D642E69BD90CD083C309FB9BC801A4DBBCEC4ADBD88C5DF3C9843D5BCBC61F33D1404B3BD58E54FBD8EC5843DA492E5BD88AECEBD52B2F8BDECBD4B3DEC17A5BD14CBAF3D242C07BDC07544BD7C635F3D5825843C6C6F6F3D4CFD7EBDC88464BD581FE83C70D14E3D145F69BD6851F43D20DFF53BAEF0D3BD18756D3DF86C98BC8075E93B1437953D68EFA6BD2C13C3BD184953BD404C0B3C90787CBD409909BB9018163C64DEEEBD8804C33C3A0B883DCEFAE9BD503ABC3D40B44ABBE02A6E3CE0A1983D"> : tensor<36x64x1x1xf32>) : !torch.vtensor<[36,64,1,1],f32>
    %3 = torch.vtensor.literal(dense<0.000000e+00> : tensor<64xf32>) : !torch.vtensor<[64],f32>
    %4 = torch.vtensor.literal(dense<1.000000e+00> : tensor<64xf32>) : !torch.vtensor<[64],f32>
    %none = torch.constant.none
    %5 = 